#include "network_data.h"

ai_handle ai_network_data_weights_get(void)
{

  AI_ALIGNED(4)
  static const ai_u8 s_network_weights[ 100 ] = {
    0x2a, 0x00, 0x67, 0x3f, 0x73, 0xa9, 0xc0, 0xbf, 0x02, 0xf2,
    0xdd, 0x3f, 0xcf, 0xb0, 0x84, 0x3f, 0x93, 0x91, 0x6a, 0xbf,
    0xd1, 0xa4, 0x90, 0x3f, 0xe6, 0x52, 0x1a, 0x3f, 0x1d, 0xef,
    0x00, 0xbf, 0xd2, 0x7e, 0x8e, 0x3f, 0x5c, 0x4b, 0xa4, 0x3f,
    0x00, 0xf1, 0x87, 0xbf, 0xda, 0x0d, 0xb7, 0x3f, 0x54, 0x93,
    0x8e, 0xbf, 0x5f, 0x6d, 0x0a, 0x40, 0x47, 0x2b, 0xf3, 0xbd,
    0xb9, 0xa8, 0xe9, 0x3f, 0x8f, 0xf2, 0x1c, 0x3f, 0xa2, 0x7d,
    0x94, 0xbf, 0xb5, 0xa7, 0x45, 0x3f, 0xe5, 0x93, 0xf0, 0xbe,
    0x2d, 0x26, 0x19, 0x3e, 0x64, 0x32, 0x2a, 0x40, 0x30, 0x95,
    0x0f, 0xc0, 0xf5, 0x99, 0xb3, 0x3f, 0xaa, 0x6d, 0x19, 0x3f
  };

  return AI_HANDLE_PTR(s_network_weights);
}

